solver_type L2R_L2LOSS_SVC_DUAL
nr_class 2
label 1 -1
nr_feature 2000
bias -1
w
2.168516026764678e-005 
-3.350281875399491e-005 
0.000234435127171729 
0.0003164217264712938 
-0.0006506627261278443 
-3.181595454077089e-005 
-0.0001362161321107134 
0.0002188143072302234 
-5.287407880624677e-005 
7.461224991459193e-005 
-0.0002358187078312907 
6.1404152907618e-006 
-0.0002422928319246289 
-0.000270579591305709 
0.0004842906761832585 
0.0001756805580868469 
-0.0001101566153856683 
0.000411222598080333 
-0.0001513070254562592 
0.0004111517304366957 
-0.0005450047393461367 
-0.0003620900330537217 
0.0004354974517833768 
-0.0001501546774510384 
-0.0004706432970565612 
5.228801919310195e-005 
-0.000346003119816417 
0.0003534726005048753 
1.862717169329728e-005 
-0.0003759589881054885 
0.0007481272214920514 
-4.075091829727792e-005 
-0.0003623509437959476 
-4.507088128520557e-005 
-0.0003605729622083006 
0.0008653945414159721 
0.0001115380932218046 
-9.167772423738935e-005 
0.0003184486566856065 
-0.0004965500901889585 
-0.0004645017122569894 
1.684815726696003e-005 
5.624322856014668e-005 
0.0003107289161954327 
-6.539015472648703e-006 
-0.0002611453283594 
0.0003355843911225803 
-4.805994744849894e-005 
-0.0002145783214773996 
-0.0002674438295441026 
0.0003533259568322882 
3.085282868314469e-005 
0.0001689006893131115 
-0.0001681575948494105 
-4.091811741483846e-005 
7.71770780647812e-005 
1.055428667547813e-005 
-4.46577632175954e-005 
2.125187280966471e-006 
5.779284605825652e-006 
0.0001799214912139627 
-2.500409618774613e-005 
-0.0001203317098786417 
-6.922799088467354e-005 
0.000207766055966043 
-0.0001780667245470862 
3.984465019474753e-005 
-3.543193973205225e-005 
3.792143438000249e-005 
4.21038071889132e-005 
-0.0002221187374111625 
4.714014356817159e-005 
0.0001293604184821408 
-0.0001162623003863604 
0.0001498202994022349 
-0.0001430350305512902 
7.343698509814273e-005 
0.0003137041323538528 
-0.0002693016855145715 
-0.0001985641292765713 
-9.378561205679129e-005 
0.0002568421310672316 
-8.094227483963767e-005 
2.682766351239942e-005 
2.687032999258784e-006 
-3.924532285506459e-005 
-0.0002082956861263119 
7.50707579064976e-005 
-0.0001718844154400435 
0.0002846201180735351 
-0.0001290464303027046 
8.749268386911754e-005 
-3.359496299958864e-005 
-0.0002158754250735362 
2.289057654025559e-005 
9.455654494054649e-005 
-1.431149852744303e-005 
0.0002823053250705918 
-0.0002832440362679407 
1.337478508864613e-007 
-4.710230696614915e-006 
-0.0002207426642621401 
3.904899596405472e-005 
0.0001406790504761867 
-0.000296557190462118 
-0.0001561419996158092 
-1.061246333247651e-005 
0.0001260898624459722 
-1.840810873005177e-005 
0.0002126702906660258 
5.267224786338479e-005 
2.944605077265016e-005 
-0.0002674268370627839 
-0.0003529519192090555 
0.0001916371891276428 
0.0004898237386891432 
-0.0001423772472456515 
0.0002873340775445567 
1.584605647408815e-005 
-0.0002827263687103574 
-6.074896763171481e-005 
-0.0002575787296709695 
0.0004660547897369528 
0.0003275572624866489 
-0.0003028334895320822 
0.0001391277650309856 
-0.0002100551855285206 
-0.000162364755283717 
6.688007953740545e-005 
-0.0002009741040336502 
0.0005962449429836718 
0.000119975808289602 
-3.395004966760437e-005 
-7.169041266546103e-005 
-0.0002389574503020485 
-0.0002983701245343445 
8.787584623535225e-005 
-0.0004961722617005364 
0.0003479480730340412 
6.213170586485671e-005 
-5.270252138834223e-005 
0.0001280398716218023 
-0.000156755041649268 
1.87930175896674e-005 
0.0002047249817974225 
-0.0001288371825235844 
0.00021369146965373 
-0.0001582144060808863 
-0.0001062996341905323 
0.0001644947671199285 
-0.0002079115854857614 
-4.248972068273832e-005 
3.522030493031457e-005 
-0.0003237169523148963 
0.0001618742969161162 
-8.91958848388387e-005 
-1.207894357960294e-005 
0.0003079907859996729 
2.678273139099713e-005 
-0.0001677176488961835 
0.0001211732718622382 
-0.0001933276002053814 
0.0001947658592045818 
-0.0001773385286200686 
-0.0003367061732220059 
0.0002478397225140943 
-3.315136850945651e-005 
0.0001159035065835769 
9.567233029082452e-005 
-6.116564553464512e-005 
-3.202888923704737e-005 
-0.0001440822367274465 
-0.0001864067647654892 
5.034926964400905e-005 
7.928701332802945e-005 
0.0001375336126093423 
-4.730871878111776e-005 
-0.0001403280366717292 
-0.0002325752062628122 
0.0001967715969608002 
-6.848059685960923e-005 
8.178509969405902e-005 
-1.966265527225201e-005 
0.0001689572068002391 
-0.0001024192850034877 
7.447677734181085e-007 
-0.0002302573449876432 
6.949425561841684e-006 
-0.0002555434149357786 
0.0001781393593927705 
3.041376702193485e-005 
0.0003111314147845269 
-1.081030047463453e-005 
4.334703635344521e-005 
-0.0002131096704851354 
-0.0001118101003000918 
0.0001203562954983443 
0.0002968229159863945 
-0.0002343603097266696 
4.8722822755923e-005 
5.691551108940949e-005 
-4.542933680706536e-005 
0.0001055623498794075 
-0.0002636445731057012 
-4.052199651569091e-005 
0.0002711325256958687 
-0.0001496781308108893 
4.822340182236241e-006 
-9.304859311192118e-005 
1.788515936705402e-005 
0.0003135626310701854 
-2.477217241628717e-005 
1.433586379070126e-005 
0.0002200418630181466 
-0.0001661114143309693 
-0.000342734647779325 
-0.0001161566998561039 
-0.0002487232358070819 
0.0005236521369609982 
0.000147088454655303 
0.0002628166280808423 
-7.937888923841687e-005 
-0.0001823861500635997 
-0.0003677535551243548 
-0.0001007331165036283 
9.934350668807202e-006 
7.498497270838602e-005 
-6.006164766598263e-005 
0.0001839266268377849 
0.0001545026752258363 
-0.0002535678963601626 
-6.982727530346589e-005 
-4.036838264711112e-005 
0.0002050001618080027 
-3.419993822593195e-005 
7.582268456444988e-005 
-4.950832602565492e-005 
0.0001223471324764415 
-0.0002734718019531123 
-6.646284038950603e-005 
-6.684303015202719e-005 
-7.600154688186578e-005 
1.80070943154657e-006 
-7.29152650670727e-006 
4.495046292750185e-005 
-6.878295733416399e-005 
0.0001224032037479884 
-1.107662562469615e-005 
-0.0001006367044980625 
0.0001678471095223252 
-0.0001633937181207221 
-0.0001162200515349773 
6.037947705120893e-005 
-4.626432313197231e-005 
4.2383446984608e-005 
9.506345333517084e-005 
-1.966915036804158e-005 
0.0003195779301306587 
-8.068781208200506e-005 
-0.0002029836606506413 
0.0002424026406256303 
-0.0003274393347898139 
0.0002883601342898951 
-0.0002804020575481022 
0.0002071556967740132 
0.0006603307852384331 
-0.0004795085359073738 
-0.0002905714658909775 
0.0001333293132804617 
-0.000115582179558768 
-0.0001223416273587143 
-5.365329696948939e-005 
-3.44665123892313e-005 
0.0005086810475113691 
-0.0003044628076189492 
0.0001295170274062653 
6.073549697992067e-005 
-0.0002965273461210889 
0.0003581930785443427 
-0.0004825112947050507 
-0.0002471701896120526 
0.000102820041727968 
-9.818724286820168e-005 
0.0001405067885140941 
-3.17321945708007e-005 
0.0002864329410327931 
0.0001768445817781961 
-0.0003903560363944125 
-0.0001039608353381885 
0.0002426292197547906 
-7.878639765607365e-005 
0.0002091237123589895 
0.0003284851695994901 
-0.0001157258251521806 
-0.0002465248152126844 
-0.0002960815387465673 
-0.0002726035933210503 
0.0001419038664660105 
-0.0001673138672157473 
0.0002746322219479428 
0.0003967176880051105 
-8.34198954701228e-005 
0.0001458110735188778 
-0.0004965688043234327 
-0.0001872055900368222 
7.446634844909683e-006 
0.0001596616541522776 
0.000153227311465672 
0.0001458762960651673 
-0.0001635430453659293 
-0.0001348683903121247 
-4.143618120557651e-005 
1.156765664322196e-005 
-4.476257047760603e-005 
-3.806064496566097e-005 
0.0001024948056674033 
0.0001998449861670466 
3.492234405535018e-005 
-6.702944065987912e-005 
-0.0002598184468222971 
-0.0001199141479329548 
-0.0001488734554387631 
-0.0001285163448618839 
7.645777173167003e-005 
3.835671211610594e-005 
8.735580714321916e-005 
0.0001971281291366189 
-6.283578228643445e-005 
-2.264866665330645e-005 
0.0001900304011529972 
-0.0001892456376531782 
0.0002468882570000115 
3.051559613534265e-005 
-0.0001430359317936276 
-4.202457586014741e-005 
-0.0001313207527205159 
0.0002728129093682698 
0.0001774922872537161 
-0.0002347691364794168 
-9.932411995644331e-005 
-1.148287556466165e-006 
-0.0004240978319510075 
0.0002331133015222755 
1.507956740665046e-005 
7.127298991505746e-005 
4.624888802969667e-005 
-4.152259427772469e-005 
0.000226287122948259 
-0.0001277710290415126 
-0.0004521673968182639 
0.0002346710612752189 
-1.786035242315245e-005 
-3.7027229413152e-005 
-0.0001668898068523991 
-0.0001071627847467012 
0.000453848512385534 
-0.0001979243003586004 
-0.0004591250419671275 
0.0002878257235440746 
0.0001656136170159428 
-1.002874013986434e-005 
-0.0002606108003693086 
0.0002334287390672896 
0.0003908021879752071 
-0.0001028577839344499 
0.0001694138250321934 
-0.0001378394893298539 
-0.0003431492486936302 
-3.385003761305371e-006 
-0.0002385996013409811 
0.0002882779105842906 
0.0006346388406990852 
-2.33828268791898e-005 
7.776090847514697e-005 
-0.0001780933315961587 
-0.0006180582065733035 
-0.0002649577958224102 
-5.857118036627849e-005 
3.920701366085936e-005 
0.0003914377758487187 
0.0002246170371844288 
0.0003032452153042957 
-0.0001355705746539542 
-0.0005602488015480722 
-0.0001924401941021155 
6.814465678191876e-005 
-0.0003021134027776876 
-1.580533093509069e-005 
2.006999374269838e-005 
0.0003934362972130439 
-7.360694898822195e-005 
4.147361867303006e-005 
0.0002447835159773962 
-1.669973041619393e-005 
4.396895082763753e-005 
-3.722706897837572e-005 
-3.022789377941771e-005 
0.0001903879266349633 
-0.0002493080492280542 
-0.0002065189614303766 
-0.0001715218009132423 
-0.0003135437208387818 
0.0001672721812427559 
8.690625877975049e-005 
0.0002105991370380054 
-0.0001673360197663441 
0.0001296907870699626 
-2.908133004529147e-006 
7.127010921476505e-005 
6.363984175694893e-005 
-0.0001094530764970592 
-6.421252761125048e-005 
0.0002024953499875505 
-0.0002681438783424118 
0.0001095759885417389 
-6.601311744270847e-005 
0.0001892886332608681 
-4.398218422862335e-005 
-0.000117369325495497 
-0.0003019020995374962 
-4.490139590923866e-005 
-0.0001151537162358574 
-0.0001228593756077978 
0.000496038153361228 
-9.56901662989858e-005 
-0.0001159368005471877 
-4.006774175142231e-005 
-0.0002124775593340396 
-0.0001091067646174651 
-7.195061344254104e-005 
4.047100256172878e-006 
0.0005803412353430424 
0.0002820961984286672 
-0.0003612470178515284 
0.0005207491553506133 
-0.0002923327137071189 
-0.0003007064841127608 
-0.0001648735681541523 
-5.917114337059801e-005 
0.0003146442630244681 
0.0001376158794349565 
-0.0006959805938421582 
0.0009054149521639772 
-0.0002630962815378778 
-0.0001014323382408154 
-4.597047290531747e-005 
-0.0002490060339276933 
0.0002516135784625078 
-5.648054679753535e-005 
-0.0006391253085984615 
0.0008731963286510116 
-0.0001348012670440724 
-7.585349188065969e-005 
0.0001747408022407339 
-0.0001577608679748426 
-4.475695898859132e-005 
-0.0002898391663811275 
-4.479425497283734e-005 
0.0004038591105764494 
0.0003356683042338632 
-0.0001799435825793198 
-3.613048074910755e-005 
1.962080155796766e-005 
-0.0002692820420783109 
-0.0003355190087280126 
-0.0001198944413241336 
0.0001729572754012083 
0.0002317784979879392 
0.0002285671564497159 
-0.0001100515135925995 
-0.0001534283493424963 
2.474907275595646e-005 
-0.0002801406579854333 
9.63631557045366e-005 
0.0002197854777345455 
0.0003560001155088569 
-0.0001179035107939495 
-0.0001385103404847266 
-0.0001548480202266058 
-4.158752984965273e-005 
-0.0001194823567435969 
-0.0002449163895701029 
0.0001597922028479265 
3.057796967333373e-005 
0.0001266863227179009 
0.0001174500978984019 
-0.0001833174179790958 
5.236826076280818e-005 
0.0002492184274055198 
-0.0002944709382517642 
-3.361254665870451e-005 
5.383317426245362e-005 
-2.750944446177075e-006 
-1.402399929748727e-005 
2.4376791915308e-005 
-4.341127532156978e-005 
0.0002119916324337259 
-5.949155925232631e-005 
0.0001553722767260286 
-0.0001845221648298273 
-0.0003610867260740297 
-0.0001339227182583443 
-0.0001853724077178914 
0.0004961903565802502 
0.0002486830991690099 
-0.0002847864729052507 
0.0002023968083014713 
-0.000438190445737797 
-7.712937880541767e-005 
0.0001918112345977424 
-0.0002328525921075507 
0.0003292264370953705 
0.0001800462135797079 
-0.0002997372714724642 
0.0008257915128096338 
-0.0006831528979308131 
-0.0001680460178057142 
0.0002269270083337309 
-0.0005603007116360857 
0.0004176308537295957 
7.988162709462062e-005 
-0.0004257169388255287 
0.0008587716492520431 
-0.0004860801452767237 
-0.0001814326843578025 
0.0003970720097862214 
-0.000467375576520674 
0.0001640387484554369 
-4.239514700615164e-005 
-0.000557523955553258 
0.00106036954649678 
-0.0004064820594434835 
-0.0002423149991669009 
0.0003993199439950659 
-0.0006710031430635729 
0.0003991885033491077 
-0.0002380478810009042 
-0.000311706831108317 
0.0008352958262420484 
-0.0003837970733439207 
-0.0001163530078536319 
0.0003204461009954432 
-0.0002484328316409226 
8.175438731778776e-005 
-0.0002196731226369639 
-0.0004792696422774047 
0.0004165620679373798 
5.689383330217347e-006 
-0.000247674512772208 
0.000221294696704879 
0.0002758586251471219 
-3.362880582543551e-005 
-2.522663174215302e-005 
-0.0002308054439709029 
0.0002437427670718103 
-0.000191363882947664 
1.21718886630942e-005 
-0.0002077425748900288 
-6.931374505526022e-005 
0.0004076963124786791 
-7.543842840657944e-005 
-0.0002481167611911574 
0.0001610622179974309 
-8.571673006851184e-006 
-2.715109912311283e-005 
6.690936392976585e-005 
-8.859773316248549e-006 
7.932484272432751e-005 
0.0001826987951327375 
5.528959432622161e-005 
-2.363480636240781e-005 
1.613243404064784e-005 
-0.0001614770896348209 
8.231932608243908e-005 
-0.0002421443054043236 
2.997474142708353e-005 
0.0002252712027084651 
-0.0001159904460442224 
0.0003160685621957488 
-0.0001467237838614382 
-0.000138971337277334 
0.0003140780169641139 
-0.0006335918355247122 
0.0001190183104469608 
0.0002468328027567177 
-0.0004337130457170651 
0.0003351259750066658 
-0.0002647477032555958 
-0.0001950803815678626 
0.0005695005449207979 
-0.0005410407281940635 
0.0002222812256579938 
0.0005012145322816588 
-0.0004007416928692901 
0.0003383246885641426 
-0.0006190331657614058 
0.0001105411827666625 
0.0005232301192429727 
-0.0006702963298762632 
0.0001559193552591031 
0.0003558857148461356 
-0.0004825606735631991 
0.0006406774369714731 
-0.0005175008780033088 
-4.061484861748644e-005 
0.0003709914735800401 
-0.00048132802700986 
9.360849140379154e-005 
-9.417740261151608e-005 
-0.0004730380507716849 
0.0008685865795979239 
-0.0002945968001217035 
-0.0002964290815338265 
0.000622029211973789 
-0.0005781658337543696 
0.0001849500668289775 
-1.577433725575878e-005 
-0.0004522560226409884 
0.0007875033948034066 
-0.0002086015277931779 
-0.0001859888790388801 
0.0002598470950308364 
-0.0004069886263491468 
0.0001614175928512846 
-0.0001103213964856792 
-0.0003780258113173082 
0.0005295571006882436 
0.0001013044738096299 
-0.0002975126085553607 
0.0003455289320337379 
-0.0002394700542692973 
-1.190194629637593e-005 
1.89885382673185e-007 
-0.0003713976918236233 
0.0003329461487399236 
-0.000104851463610824 
-0.0001918004681780987 
1.74156672886236e-005 
-0.0001573381751601731 
0.0004139947869690767 
-0.0001149101444105213 
0.0001299747495730425 
3.006414198901072e-005 
0.0003014188033052414 
-0.0001664435832274914 
7.625413607636002e-005 
-0.0002865754663440572 
-3.062394735401247e-005 
8.713470300462021e-005 
-0.0001199388842712688 
8.835183242284559e-005 
9.420641854469228e-005 
-0.0001376672444845063 
5.540027487080478e-005 
-0.0002941846638050072 
0.0001658562533253959 
0.0003072696158563503 
-0.000640834169523321 
0.0002737750122280034 
-0.0002052137706059194 
-0.0001360158259927185 
0.0005852885753765334 
-0.0006089456741450579 
0.0003638349264137105 
0.0002599120800960507 
-0.0005850341459845844 
1.718187914835462e-005 
-0.0004031760815189618 
-0.0003412385832928902 
0.0006515497775351614 
-0.0003118335668995561 
0.0006517973305240173 
0.0004317952996349273 
-0.0004315568787174352 
0.0006703930047355335 
-0.0003883124916815344 
-0.0003680805940461107 
0.0005152447350776615 
-0.0005708742171660522 
8.054983177059536e-005 
0.0004541801638720745 
-0.0004292707307400107 
0.0005199777754214714 
-0.000120936828066497 
-0.0005069156156071222 
4.993899812698945e-005 
-0.0004849275195942262 
0.0004571124461948951 
0.0002926593883724605 
-0.0003570543116730029 
0.0007656800290206978 
-0.0005233437519990276 
-0.0004215340625923622 
0.0004004678359919758 
-0.0004477357347200129 
0.0002300192972068452 
0.0004369819806887888 
-0.0003129003720973193 
0.0006647836330173994 
-0.0001910651056650617 
-0.000218919460369306 
0.0001540712827592193 
-0.0008337499802622639 
0.0002399567115361288 
3.074198636193825e-005 
-0.000409903218110372 
0.0002310891131194281 
-5.148403245125409e-005 
-8.974962097226686e-005 
0.0003149711575653214 
-0.0001523399820876225 
6.583328618240531e-005 
4.790062416659001e-005 
-1.112399164403534e-005 
0.0003528844015213945 
-0.0002889065110266541 
-0.0001320719365734136 
0.0001426201305286477 
-0.0004288242402820914 
0.0002566802129171379 
2.416797942057089e-005 
-0.0005999588168859603 
0.000173339631496459 
0.000484434092087912 
-0.0004701456914049227 
0.0001004190762774749 
2.548021708981972e-005 
0.0002014222015262254 
0.0001759849865225375 
-0.0003989635297243941 
0.0002661319588120028 
-0.0001009240550741927 
-0.000601575008404366 
1.593477965750357e-005 
5.029374255827425e-005 
0.0005322758152602083 
5.346590220774693e-005 
-0.0006483514165772156 
0.0002266551808104138 
-9.324444682450235e-006 
-0.000755750126718733 
0.0005545823915850289 
-7.111189147409043e-005 
0.0005889930944568863 
0.0004946835195862074 
-0.0002238550602150185 
0.0002640385851526873 
-0.0005309465760571999 
-0.0006577441332087314 
0.0005126074322387927 
-0.0003605276503980411 
0.0004409025725088958 
0.0005150992990001179 
-0.0002875054662986291 
0.0004690221493018074 
-0.0007232216439655484 
-0.0004444074206200736 
0.0002467277897064707 
-0.0003103755866134857 
0.0004738195690969333 
0.0005165715713915182 
-0.000462720324194364 
8.98540133093623e-005 
-0.0005979767962127709 
-0.0002294392455522204 
9.888976919784348e-005 
-5.497707417052325e-005 
0.0005789567758387451 
0.0003194367845412078 
-0.0003860874626913115 
0.0005011365106020562 
-0.0003023057951835832 
-0.000582491294986152 
9.455011790925099e-005 
-9.290283357647832e-005 
0.0003878226629925896 
0.000260375483886995 
-0.000334822464347159 
0.0005843364598550785 
-0.0003135527207082865 
-0.0003498288544805967 
-8.175768119846786e-005 
-0.0001820407684939463 
0.0003564492350939708 
4.546755749975824e-005 
-0.0004220263854525945 
0.0003909639146292078 
2.732132390744641e-005 
-0.00025483391708565 
0.0001402144515253636 
-0.0003118064946979064 
0.0003238582392819526 
-1.718533411780895e-005 
-0.0002513348092593125 
2.748926696184699e-005 
-1.988932190526059e-005 
-6.981323051588229e-005 
0.0001356873995716743 
-0.0001434548951748847 
0.0002776596140472088 
-0.0001157107153626785 
4.347669235514163e-005 
5.587469685758721e-005 
-6.385704476745984e-005 
-6.073343505050103e-005 
-3.912893268622752e-005 
-7.166319450585108e-005 
0.0001909006227675656 
8.232756245305927e-005 
-0.0001803860534438116 
-7.821868438803796e-005 
-9.619288191691534e-005 
-0.0001342374327108545 
-0.0001353267344668159 
8.186404907229682e-005 
0.0003993288650086588 
0.0001874390620442133 
-0.0001258367160453383 
0.0002340950612866229 
-0.0003144275282352618 
-0.0006384690067076454 
0.0002701641640245069 
-0.0003153238553412742 
0.0006415175085817612 
0.0005193373117819234 
-0.0001696803267146927 
0.0003299682274708165 
-0.0003901979661920259 
-0.0006199877060029422 
0.0002734019749581733 
-0.0005812158106030708 
0.0005775329849093837 
0.00050876789120266 
-0.0002340707272826029 
0.0004674607019023716 
-0.0006846798849984514 
-0.0004850222858309898 
9.220163778412317e-005 
-0.0004601271537880585 
0.0007346285106185224 
0.0004665921210527019 
-0.0005098911338513037 
0.0003985806402577389 
-0.0005588383795858255 
-0.0003116002726509891 
0.0001786340418786219 
-0.0002135263639284795 
0.0004892080364351129 
0.0003378492016346016 
-0.0001368519507033383 
0.0004924743062350512 
-0.0003310369438780264 
-0.0006035763686453613 
9.398333266455332e-005 
-0.0001356900289575745 
0.00022200714125767 
0.0002063565968276137 
-0.0005350468119030982 
0.0005560238429725171 
-3.56363670117177e-005 
-0.0001943812151988436 
4.366474222103135e-005 
-0.0001541455024333321 
5.232340413341278e-005 
3.402321026558068e-005 
-0.0001276608071892935 
0.0003520703761602167 
-0.0001792665886031692 
-0.0002327339039754239 
0.00011368161471064 
9.433611930789431e-006 
-3.038882369176382e-005 
-3.303041510375787e-006 
5.006156031152762e-006 
0.0003569393061044336 
0.0001875185765848952 
-9.234801240039609e-005 
-0.0002457138449242173 
-0.0001167912467059335 
-0.0001521492035719782 
-0.0001675864881777983 
0.0001692544762335687 
-5.138583200688046e-006 
-0.0001135828964186017 
-0.0001893171788831014 
-9.183244286408468e-005 
0.0001301067309805914 
0.0002072550719376883 
4.89773043188517e-005 
-5.682134394225804e-006 
-2.547192124146866e-005 
-0.0001172202428972535 
-8.020928010792281e-005 
-7.878342071426502e-005 
-6.175361123830084e-005 
0.0002593019958821647 
0.0002424577327504119 
-0.0002041029672389148 
0.000225935551138034 
-0.0005504811624295285 
-8.683717217639922e-005 
0.0001378112739105921 
-0.0003357142738197161 
0.0005100897074730999 
0.0002970402806243 
-0.0003345106457321409 
0.0003255628662517855 
-0.0004981093637099766 
-0.0001521201757745566 
-3.059481206917989e-005 
-0.0003443054302245209 
0.0006761959702418705 
0.0001586627947817569 
-0.0003983737658502545 
0.0007753310969848258 
-0.0005254225735700167 
-0.0003299116336325769 
5.603515146945255e-005 
-0.0006513484715985796 
0.0008541860910229642 
3.866752618218876e-005 
-0.0002457638148006835 
0.0005958808264461374 
-0.0002176535632092043 
-0.0002078583352711381 
0.0001146703212247634 
-0.0004327474603682271 
0.0002939631894037462 
9.689315730163878e-005 
-0.0002183721952342242 
0.0004473442850061724 
-0.0002948324518647827 
-0.0002243085673722666 
0.0001725072899115495 
-0.0003703495833033243 
0.0003302767551628133 
0.0003802069107004277 
-0.0004001436231385265 
0.000686266504116362 
-0.0001807544024626823 
-0.0002607614303274529 
-7.510418909253359e-005 
-0.0002073995728392892 
-3.151507348720356e-006 
0.0001401802892830129 
-0.000289650437162526 
0.0005267763087736813 
-0.0003529861761856152 
-0.0002582283682193345 
9.951460977858663e-005 
1.270885293228385e-005 
6.08436104075008e-005 
0.000168856406788044 
7.296170118844382e-006 
0.0001761992616558818 
-0.0002629286818732942 
0.0001554706112472011 
-9.859746687575147e-006 
-0.000184063964187876 
-0.0001118113674536415 
0.0001088356339518467 
-0.0001998051363017342 
1.755230278702363e-005 
-9.115940750353061e-005 
0.0003184216170030228 
-7.382469276108781e-005 
-0.0001157449584026191 
-2.511666916534259e-005 
0.0003014813916599467 
-0.0004522117540232011 
-8.886232841811722e-005 
-0.0002061739417167222 
-0.0001967983518076863 
0.0002952226114110355 
-0.0001521640167478048 
0.0004386650792501182 
0.0005181554633585117 
-0.0003666065491823948 
3.673892903958571e-005 
-0.0005351627646478023 
-0.0003057709666632927 
0.0004153167454170172 
-0.0003455035126775303 
0.0005219913449634851 
0.0004061582287274185 
-0.000409761672924754 
7.964051121260951e-005 
-0.0004504691409467428 
-0.000265130027445454 
0.0002272171970644091 
-0.0003377589052072472 
0.0006892624991273517 
0.0002278595617208298 
-0.0006462196737503889 
0.0003609061417901645 
-0.0004092297546360859 
-0.0004656151831348898 
0.0006012446196035216 
-0.0005171833807186738 
0.0007873963587330964 
0.0004754658524876867 
-0.0007580973194239266 
0.0004895679587885263 
-0.0003079084535792696 
-0.0005318878119537114 
0.0001681640318562648 
-0.0003575203670746706 
0.0007613747985066848 
0.0004691148642602591 
-0.0006248404248288079 
0.0006065995330126403 
-6.066130939341816e-005 
-0.0004506192105372113 
0.0002730849571737334 
-0.0007509207560629196 
0.0004774010359833178 
0.0003333908246361732 
-0.0004929360350000765 
0.0005094053422767303 
-0.0004884477008475121 
-0.000142476192123282 
7.796838074117868e-005 
-0.0003002735578197924 
0.0004425276277441662 
0.0004422959489949969 
-0.0003918446387014839 
0.0004800190706216303 
-0.0003536055679649839 
1.238592654815866e-005 
-2.183965713535918e-005 
-0.0003891010095432933 
0.0001608486167879237 
0.0002304920342444951 
1.114945022457232e-005 
0.0004968330165699932 
-0.0002572215806734703 
-3.117084063490652e-005 
5.957593650976902e-005 
-0.0006911377188849925 
0.0001206383922521299 
5.493906499462942e-006 
-0.0001711293581533244 
-0.0001137548789866619 
-9.539208640041707e-005 
3.462558687601547e-005 
-0.0001803655248958652 
0.0003467384993717104 
0.000112942545296655 
0.0002125057043461173 
-0.0004200526903913913 
0.000111691912559461 
-0.0001495697421671617 
6.321172483369849e-006 
-6.440585870253317e-005 
2.736332117139339e-006 
0.0002399318593625778 
0.0002564785614722598 
-0.0004339312999831889 
5.330974439111325e-005 
-0.0003966521610095236 
-0.0002068514511464309 
-7.845179510571395e-005 
-0.0002212272583675565 
0.0009664843493566264 
0.0002410711246043574 
-0.0005244220888093207 
3.141557704680793e-005 
-0.0001976709893584355 
-0.0004376952589721597 
-0.0001437218275958165 
-0.0003136426347320638 
0.001283824787424223 
0.0002751154678456888 
-0.0005109307982338305 
0.0002231930768232711 
-0.0006757793815107269 
-0.000406909422542046 
4.98324121860999e-005 
-0.000273330004590391 
0.001257967339629501 
0.0005520429918384314 
-0.0006532067157592212 
0.0004336403346020784 
-0.0006418133780036253 
-0.0003406031262875107 
0.0002893004024673924 
-0.0002114767107977464 
0.0005112748915477852 
0.0008610785656907363 
-0.000525018085085906 
0.0003535271383269851 
-0.000154269682651247 
-0.0008655320555537926 
9.184402619437924e-005 
5.860386692425583e-006 
0.0001716683959940033 
0.0009375060150362739 
-0.0002874980432290978 
0.0004434853600930602 
-0.0003936914203756117 
-0.0006229544510495452 
-8.770692899039698e-005 
-0.0001356662739760278 
8.568443209892788e-005 
0.0001426646624406399 
-7.952350832521934e-005 
0.000327763776536484 
-0.000348872121430738 
0.0001613318430014205 
-0.0001069979457235346 
-0.0002258231480368092 
6.861513114533603e-005 
0.0001231930284622911 
0.0001282647702976123 
5.708302923017939e-005 
0.0001170812408715445 
-0.0001591092474655468 
-0.0003482420445667355 
-7.819567078204869e-005 
9.908358356027917e-005 
0.0001226846139218899 
2.886399865520454e-005 
-0.0001877093151385816 
-0.0001509328403926611 
0.0001389651946032554 
0.0001622515364957401 
-8.904145981344823e-005 
-8.592303872382059e-005 
0.000276397997556867 
-0.0002293053981627198 
3.669786581037763e-005 
-0.0004620799982893401 
-0.000141146553184137 
0.0003508875005785784 
-0.0004851041052361171 
0.0005928113805340741 
0.0002780984477533346 
-0.0004162840118626753 
1.554601657815269e-005 
-0.0008005913532121478 
-0.0005308125624867318 
0.0004074906756509695 
-0.0004755514848238857 
0.001461262962010567 
-2.963970265320981e-005 
-0.000121717588781561 
-0.0003202141724379692 
-0.0006542978646558824 
-0.00065253934837887 
0.0003204685559535689 
-0.0001193099135431132 
0.001516408724104628 
0.0004169342739726524 
-0.0004858343911251398 
0.0002884176745973597 
-0.0008606536012626672 
-0.0007937838282289218 
0.0003070393279338784 
-0.0001239697954278744 
0.001191009029148286 
0.0009190734455131769 
-0.0003056599170973497 
0.0002223129185861533 
-0.0009057410923810711 
-0.0009756740460653511 
0.0004555899014392341 
-0.0004575925443286335 
0.0009868500239414383 
0.0006843351740468458 
-0.0002917972142983776 
0.0005005394089631078 
-0.0006770312286611364 
-0.0006514754058401886 
0.0004750570371526429 
-0.0004953006304258513 
0.0003948315486705509 
0.0005241607491992564 
-5.311688390045634e-005 
0.0007965524560703198 
-0.0005589795795099303 
-0.000599888997483045 
-6.509486915326895e-005 
-8.897185712650092e-005 
-1.550232848879546e-005 
0.0003164827128132151 
-0.0002352225479988312 
0.000192931225653 
-0.0001681774756196772 
-0.0003665741142618233 
-1.540062783516143e-005 
9.16046027626176e-005 
0.0001235149140942351 
2.15845683813314e-005 
-8.675595408090321e-005 
3.637780879311337e-005 
2.112657013890856e-005 
-0.0001408924488280298 
-0.0001907672969655356 
0.0002277913511401667 
5.069409102852121e-005 
0.00035442749775457 
-9.448329337934971e-005 
-0.0001842349968119253 
4.988751238473219e-005 
4.511346820914892e-005 
-0.0001553030641021358 
8.468878362449883e-005 
-0.0001609372180719622 
0.0002782134638119923 
-0.0003318717640123384 
-0.0003034482539948379 
-0.0003931259084249484 
-0.0001546332277391638 
0.0001328188718782304 
-5.1988923350841e-005 
0.0007631944314394863 
0.0001448631402515734 
-0.0004364343220174566 
-0.0001002274116615209 
-0.0008894749944182992 
-0.000432667082568161 
0.0001474210680127131 
-0.0004696638814238128 
0.001975342173432554 
0.0002471104248925484 
-0.0001680264358706861 
-5.076730036896067e-005 
-0.0009267433990254912 
-0.0004985291487352335 
0.0003379270566600884 
-0.0005823998607511995 
0.001580587352806509 
0.0008235489831936539 
-0.0002837273217941613 
5.554099332209012e-005 
-0.0009719396180163847 
-0.000454403126686557 
0.0003945885516070281 
-0.0004359012933809785 
0.0008114515213628931 
0.001157787620165328 
-0.0002546363483426212 
0.000326388178661904 
-0.001078788472416787 
-0.0001135999302452306 
0.0003286743790523936 
-0.0006822765257822634 
0.0002556097885148503 
0.0007117679493486489 
-0.000341778326080876 
0.0005570792945347648 
-0.0004674940288021757 
-0.0005026122941656723 
0.0002170244306367954 
-0.0004656586018548519 
0.0002308302659909347 
0.0003870828474405284 
-4.936543425445825e-005 
0.0004437628685421479 
-0.000290429145815705 
-0.0002441644404354932 
-9.215455660403509e-005 
-0.0001286485768315245 
-8.692487243388329e-005 
0.000209024294983797 
0.0002005573790465078 
6.462748567748704e-005 
-0.0003998420962136849 
4.214920957893826e-005 
-5.100961156769076e-005 
-0.0001095304237901462 
-1.681754810763516e-005 
0.0002001473616309244 
4.165908486064987e-006 
-0.0001240086083562996 
-1.205120311474859e-005 
5.803287701191298e-005 
2.151564831146913e-005 
-8.710848262565759e-005 
-0.0001215348117360859 
-1.729571900443207e-005 
7.386998473533496e-005 
-0.0001338897543464617 
-6.952149288081406e-005 
0.000297885042357347 
-0.0001478872318540255 
0.0001135550962779778 
-0.0001775572356773517 
7.891358541411148e-005 
-9.515819988869337e-005 
-0.0001932225704461975 
-0.0006562143728723676 
-7.681700133084701e-005 
-0.0001054744553308073 
-0.0001537960838625629 
0.001140927787924943 
0.000139067927341505 
-0.000228695063876041 
6.680777261166474e-005 
-0.0006340072744651577 
-0.0006442878003767833 
0.0002239130867769042 
-0.0003416497445390271 
0.001358009786134518 
0.0001961417748322997 
-0.0004008783845555405 
-2.584517800270349e-005 
-0.0007188765494769274 
-0.0004948248862334285 
0.0005765792456056374 
-0.0001634304848110058 
0.0009702931522492598 
0.0009016313857046508 
-0.0005385096622798569 
0.0001912008418913531 
-0.0007076886827251901 
-0.0006549282580883697 
0.0002108664290281216 
-0.0001546328677681236 
0.0006912195038449993 
0.0009467838443899878 
-0.0002686565373131144 
0.0003375666830899345 
-0.0005595218668609431 
-0.0006572223686677732 
5.771127495270178e-005 
-0.0004118962190516003 
0.0004943938790683998 
0.0005757962604471023 
-0.0003700030971007666 
0.0001665426992599597 
-0.0001596731092080975 
-0.000476435337581506 
0.0003065012277089476 
-0.0003681929280955245 
0.0002646229741774783 
0.0002150855713914816 
-0.0002405898344577766 
0.0005248098015711645 
0.0001507072050879644 
-0.0002551544679073124 
2.830088030186273e-006 
-0.0002582319158814856 
-0.0002002977582266458 
0.0001766073818653556 
9.788427531321897e-005 
0.0002348727454207928 
8.781628144728136e-005 
-0.0001799806364193932 
-0.0002282176205572948 
-0.0001958453299729543 
-5.397840748943088e-005 
0.00017051401223732 
-5.802919813040825e-006 
-0.000183890551618151 
0.0001963107603089147 
-4.631656733232428e-005 
5.912237762472897e-005 
-0.0001099619753779284 
-0.0001408164464219412 
0.0001348218658774861 
-0.0001176170978500507 
-6.959240954337387e-005 
-0.0001269096466625703 
-4.638009174840573e-005 
8.833274129109687e-005 
8.284552372468889e-005 
-6.342195481293393e-006 
-0.0001673899558028779 
-0.0004772562030236589 
4.116806854286114e-005 
-0.000379400105473045 
-0.0002515899041235621 
0.0003883634108093239 
-8.880944458579233e-005 
0.0008740728232643413 
0.0002367578913786097 
-0.0004820497173102492 
0.0001681402176694029 
-0.0005021235604390137 
-0.0007073210099238637 
0.0005910579994957677 
-0.000446218180749227 
0.001080915049486153 
0.0001514086415072365 
-0.0003098206336477261 
0.0002528112762063596 
-0.0005076009480242017 
-0.0002655441271036628 
0.0005831237864800823 
-0.0003287675856631096 
0.000363548279852612 
0.0005316975061694621 
-0.0005138376059635057 
0.0003800571573135024 
-0.0005328026649058153 
-0.000489797775379563 
0.0006781905809754898 
-0.0004731415277124269 
0.0003587930191104497 
0.0008874768557844286 
-0.0004789490785924483 
0.0008093271379203277 
-0.000324273493930583 
-0.000727013879940947 
0.0001036377358337908 
-0.0005656874193652671 
0.0002346408318982947 
0.0001547010175641582 
-0.0005119892839942441 
0.0002965167912005956 
-0.0002537591036775321 
-0.0004856612976016565 
0.0004459259453696234 
-0.0001936658670328367 
0.0004870904877794673 
0.0003516137198260252 
-8.221113628563347e-005 
0.0005324248788469325 
0.0001756113766106118 
-0.0003874364414798298 
-5.933942906718189e-005 
-0.0005776445787876539 
-1.385970005569491e-005 
0.0002432343475901897 
-0.0002917900344123541 
0.0006460450408310765 
-4.868881278385809e-005 
-0.0002866455706695936 
-1.676059090339075e-005 
-0.0003321778059884413 
2.594211594395468e-005 
0.0001468299315393365 
-9.113043940850989e-005 
-0.0001523660651060434 
0.0002079809692591548 
-0.0002797492342303063 
0.0002274789242132721 
-0.0002254197539038116 
0.0001055343572444874 
-5.075725904140405e-005 
-0.0001586690419168203 
-0.000196621608822656 
0.0002255485150390066 
-0.0001232496084471918 
3.172025923756814e-005 
0.0002164254836507687 
-5.23805009169935e-006 
-0.0001794907217979059 
-0.0004679730952713345 
6.515363791322773e-005 
-0.00023445713112247 
-0.0002952036798906842 
0.0006160477982101939 
7.835024452764688e-005 
0.000356731637038911 
5.167364282637223e-006 
-0.0004220743738292932 
0.0002481931518333233 
-0.0004919860727516511 
-0.000352006865107738 
0.0009190246957703066 
-0.0002289162898913024 
0.0002617570793012874 
8.49976043599228e-005 
-0.0002819615258218608 
0.0002240884424890214 
-0.0004890881831047042 
-7.706815424728732e-005 
0.0007995442395827279 
-0.0005663113291803957 
0.000244957595530154 
0.0004285858734631014 
-0.0002890597286878862 
0.0005519042279919294 
-0.0002868742341353232 
-0.0002975488707633564 
0.0005420219146699182 
-0.0005811123134425603 
-0.000128758179488247 
0.0004420496688398979 
-0.0005386917429546562 
0.0009916687372421844 
-6.82225080321183e-006 
-0.0004214892897846743 
0.0003237194308252602 
-0.0006544778139919084 
-0.0001967980497653123 
2.307309141990245e-005 
-0.0002929559335209514 
0.0005909169979762592 
0.000194768922555051 
-0.0001692358630088838 
0.0003700044227049916 
-0.000541668495654137 
-0.0002357444528646434 
0.0001850685242002504 
-0.000225381993728111 
0.0006662804505873364 
0.000132305688219231 
-0.0002894054143785265 
-8.422841126221109e-005 
-0.0002064052266090982 
-0.000239074927421295 
0.00015767792893814 
-3.182225749932819e-005 
0.0004011188105099418 
-3.849319597912684e-005 
-0.0002671991974534703 
-0.0002769691571862083 
0.0002060613226706377 
-0.0002112155643930111 
-5.556779476527558e-005 
9.640335744808737e-005 
-4.626704221240732e-005 
-0.0001314930418025437 
-0.0001566257792244085 
0.0001289259621144917 
0.000125065934032493 
-2.128290598286236e-005 
-1.999779416945381e-005 
-1.435441079902457e-005 
-9.099857132147121e-005 
-6.233530701954644e-005 
0.0003383948427997172 
1.796169501075524e-005 
-0.0002308789283948852 
1.367163501489103e-006 
-7.596777788253867e-005 
-0.0002105933233851346 
-8.187723205676336e-005 
-0.0004799441316564645 
0.0002164883217167192 
0.0003958133724124365 
7.886587690790859e-007 
0.0001744508016902419 
0.0001611036429985097 
-5.339035919086575e-005 
0.0002470970088976772 
-0.0007360601552496689 
-0.0003039748909758866 
0.0003682850552644339 
-0.0003103198645329879 
0.0005664182523963615 
0.0001852040089714016 
-0.0005692760528363417 
0.0006331732717500003 
-0.0005092048139629485 
-0.0005040623724123003 
0.0007571762000722287 
-0.0004389424593651102 
0.0003850909073906558 
0.0002820849435684086 
-0.0004261750463703925 
0.0005804464851036801 
-0.0002673752312763747 
-0.0003805812525889274 
0.0007562688581131655 
-0.0006963099813272476 
9.079991438526519e-005 
0.0001818916440887415 
-0.0006763614326972479 
0.0009743114212188835 
0.0002061658431536537 
-0.0005312771716746578 
0.0003737218367839388 
-0.0006108390904277365 
2.154563916200935e-005 
8.276889792130393e-005 
-0.0005819615707910767 
0.001045181122913087 
0.0003678083890754642 
-0.0005399302016392846 
0.0002251937278111614 
-0.0004449610662565051 
-0.0002149406094265699 
3.039446241467106e-005 
-0.0005681778000916144 
0.0004961635002173196 
0.0002883167180463843 
-0.000132727567875997 
-9.437301726759287e-005 
-3.910900520886804e-005 
-4.132860062673128e-005 
9.190890161556441e-005 
-9.380546881830429e-005 
0.0003835196685034754 
0.0001491063046855643 
0.000128681639909178 
-0.0003049562661007546 
-0.0003254703080838097 
-8.982578210333842e-005 
-0.0002349834501746474 
0.0002221873937070573 
0.0001878535131699073 
0.0003349253316853602 
2.646576251964535e-005 
-9.169758553542264e-005 
-0.0004359068003894143 
-6.96854753749104e-005 
-9.491195025110854e-005 
3.364754645483714e-005 
-0.0002341670139390238 
-0.0002255655281212064 
0.0003441309950519896 
3.566105253677187e-005 
-1.078902138722806e-005 
9.115260926254558e-005 
4.419857894555218e-005 
-0.0004004095345008477 
9.100784523347511e-006 
-0.0002864558081760546 
0.0002528218151055687 
0.0004009730059022968 
-0.0003155603757482993 
0.0002344902235560082 
7.459569055896406e-005 
-0.0003523510436978541 
0.0001640562313770533 
-0.0002997665924605163 
-0.0003527309116455336 
0.0004972822652033535 
-0.0001824050942662679 
0.0003904781445383854 
0.0004438371748752554 
-0.0006720245981685787 
0.0004856293439377131 
-0.0003887840713649725 
-0.0007342997836604452 
0.001114567798280632 
-0.0004450613750652869 
0.0001352942007732769 
0.0003312887575374586 
-0.0002616233420208143 
0.0003106839641323933 
3.102407838201847e-005 
-0.0004801684116266746 
0.0005630235389816539 
-0.000584344021921074 
2.927412614261356e-005 
-8.244769549890941e-005 
-0.0004434049367099175 
0.0007270104651154799 
0.0002219728271630224 
-0.0003325544912204363 
0.0002770602786801177 
-0.000484062964514767 
5.558520659298966e-005 
-1.550931107039917e-005 
-0.0007055736050537886 
0.0007880896671204893 
0.0004114566254727864 
-0.0004044466919996303 
0.0003848105568062293 
-0.000550717957126414 
3.104940545831027e-005 
0.0001515545450423857 
-0.0004370249470464182 
0.0006423039816179839 
0.0002045135024788112 
-0.000343046148401047 
0.0002037863224011491 
-0.0003639984069224436 
-0.000118930159562848 
4.289261860776305e-005 
-0.0002930898999688871 
0.0005948436724785232 
0.0003876761410296899 
-0.000332654120028135 
-5.057424468693919e-005 
-0.0002204459443190726 
-0.0001894895335053595 
8.817768383994723e-005 
0.000258024343609018 
0.000211414576107277 
5.006691114233882e-005 
-0.0001543949530796394 
-0.0001533833237395106 
-0.0002685864961753941 
-9.216005209645731e-005 
-0.0002712929602353426 
-0.0001436753926194128 
-0.0003630051267680075 
0.0001129338315241415 
0.0004690167533936054 
-6.130995567444323e-005 
5.808054977996876e-005 
0.0001384109902070714 
-2.241618766356523e-005 
-0.0002804108728549091 
5.235419990776049e-005 
-0.0001923978678473184 
-0.0003148141005033793 
0.0002746593887712891 
7.815026094530585e-005 
0.0003440338688523965 
1.945842181232065e-005 
-0.000517043871758956 
-1.540921066836254e-005 
-0.0002057568735506059 
-0.0002788080096502815 
0.0004312197553426488 
-1.125855086901339e-005 
0.0005167570289498312 
0.0004118202793885012 
-0.0005917861927731176 
0.000218487493967756 
-0.000120094590744469 
-0.0004796206785217771 
0.0002938069474966123 
-0.0001555692882002789 
0.0003621147189943548 
0.000364710396672297 
-0.0002637403498368691 
0.0002421016205797582 
-0.0002885058588053796 
-0.0002839143964969833 
0.0003582800124907602 
-0.0004871642614040846 
0.000297391526408081 
3.009658719156703e-005 
-9.127312056723831e-005 
0.0002847579542920853 
-0.0001103159843369606 
-0.0001350524890995474 
0.0001953040114027851 
-0.0003437350786018105 
0.0001093768093266974 
0.0002777566821561001 
-0.0003102045131493847 
0.0002027806087948618 
-0.0001873527946085985 
-0.0001362622066440633 
0.0002976065100344381 
-0.0003434425836307408 
0.0001382769866549696 
0.0004103604168941463 
-0.0005330785383671728 
0.0006086917734593082 
-5.151431702496343e-005 
-0.0002401895527414505 
0.000321245054057797 
-0.0003670727471737339 
-0.0002092833994963383 
0.0005057504291129622 
-0.0003422644106181264 
0.0004876873136845689 
-0.0001537469235340348 
-0.0001197786972427008 
4.186631216592207e-005 
-0.000305554224841314 
-0.0001748011091196953 
0.0006678591802032823 
-0.000127208323719365 
0.0004731440404995924 
-0.0002611027056303544 
-0.000114060141769442 
-0.000253119158751345 
-0.0003755567627970076 
-7.079743842778069e-005 
-0.0002981972856971249 
-0.0001089854244884412 
-0.0003876312792637737 
0.0002946549256596818 
0.0001904768241014758 
-4.146150838776793e-005 
0.0002749707007245471 
1.533173695898335e-005 
-0.0002611634324638283 
-0.0003493190119201038 
-0.0003183149557481406 
-2.396650250728374e-005 
-2.768878965219504e-005 
0.000426020528896957 
0.000154034275520561 
0.0003395565774816139 
-6.455298763873196e-005 
-0.0005967598217394332 
-3.241736068612352e-005 
9.216535117766895e-005 
-0.0001504754208786663 
0.0005175616775712698 
-0.0002191857885568969 
0.0003928230403584983 
0.0005425838101029856 
-0.0002441584747293517 
0.0002712750052224143 
-0.0001895524833590712 
-0.0006663466230704575 
0.0003351415979053727 
-0.000272000090761572 
0.0001622159482972648 
0.0003493771198814607 
-0.0002840379883679712 
0.0003351522221395379 
-0.0003444617833328664 
-0.0005757556538115502 
0.0004579905739042435 
-0.0001846905792565001 
0.0001855847784512248 
0.0001487821756486137 
-0.0001864665990932911 
6.848399008086322e-005 
-0.000104229301795753 
-6.424037993423342e-005 
0.0001307490147776364 
-0.0003125394409161175 
0.0002586192308398584 
0.0002435742352330841 
-0.0002590685452460557 
-4.367361108362474e-005 
-8.978420398347998e-005 
-0.0001942143355474244 
0.0003414765787679163 
-0.0002616070092943033 
0.0002024555807614656 
0.0005821787358782397 
-0.0001056824308155912 
0.0001083578758634604 
-0.0003897905637917599 
-0.0003049346798065638 
6.84119003985795e-005 
-0.0001172551755239493 
9.787302740516159e-005 
0.0005183377403781125 
-0.0001503347395495141 
0.000175424193455953 
-0.0003670912544203639 
-0.0001447130577210568 
0.0003532611494167465 
-0.000428604127389516 
-1.712121456278643e-005 
0.0007143694799164825 
-6.67704840246073e-006 
7.509213455944771e-005 
-0.0001574811879698675 
-0.0002808383802567601 
-0.0002060464836151781 
-8.168559837316116e-005 
-0.0001175742262509188 
-0.0002865941023061589 
-0.0001439277415577424 
-0.0003833567041090593 
6.758191935466083e-006 
4.692670067547731e-005 
-2.001839122866527e-005 
0.000766619760774028 
-4.724902457576663e-005 
-0.0003681424708568112 
-0.0006424233623714996 
-0.000453183487038799 
-0.0001424217956174687 
-0.0001801859854297947 
0.0004515606575516493 
0.0006033821569496511 
0.0006705729764206554 
1.138147246720905e-005 
-0.0003677665114268049 
-0.0001353943319416184 
5.171591205768245e-005 
-0.0001604223808930856 
3.628181311226369e-005 
0.0002991402509717402 
0.0002042224652601872 
0.0003707848845422595 
-0.0004635406377758553 
0.0003295017078439508 
-0.000183340778947048 
-0.0006306804034315947 
-5.30865241649509e-005 
0.0002270411165514459 
0.0003424793249893762 
0.0001970483699479821 
-0.0003517609656721606 
-4.56629322756996e-005 
0.0001249677104895882 
-0.0006317660325356195 
-1.527097598789342e-005 
0.0003714894769518346 
0.0002901140386895491 
9.307254013988335e-005 
-0.0003822768321192936 
6.736702905343973e-006 
3.504267299128274e-005 
-0.0005098659857886496 
0.0001312389607929576 
0.0003795124635820754 
0.0001856981671039775 
0.0004122894628631556 
0.0001745819097221048 
-0.0001532493588980461 
-0.0002076385592342222 
-0.0005648563187497303 
8.39456003727481e-005 
-5.355759457556915e-005 
0.0002476435481071397 
0.0005664954345032875 
-0.0002769953994836516 
-0.0002089319149807854 
-0.0001576029599776413 
-0.0005243089996042472 
-7.199760870879994e-005 
0.0002529445228010904 
0.0003595556150583264 
0.0004974579587411302 
-0.0002289504140652996 
0.0002108303792454111 
9.710057498475072e-006 
-0.0005631145002311003 
-0.0001088926727364186 
-9.264235590489814e-005 
0.0002147602370602811 
0.0007168195878804114 
-0.0001454881992611566 
2.896510380445729e-005 
9.029838949079265e-005 
-0.0008031679755655648 
-2.940296442275801e-005 
-6.221386897841866e-005 
0.0001433486166598181 
-0.0004925624056078949 
-0.000449675734046029 
-0.0006819871196591033 
-0.0002912300047884977 
0.0008631420503756531 
0.0003120683187361266 
0.0004467146503840663 
0.0002326889342132651 
-0.0007168449980151917 
-0.0003541407712883692 
-0.0006016583149048554 
-0.0001285550087809944 
0.001073739014345186 
0.000158532717695717 
0.0005489002194704287 
-4.081416891435008e-005 
-0.0007494829702824867 
0.000204827837875629 
-0.0005962812215989289 
0.0001332000987654261 
0.0009564516844450705 
-0.0001661648780897389 
0.0002969276159352529 
-0.00014031947744265 
-0.0002000689565984892 
0.0003100261495668054 
-0.0003143128928292577 
6.66960544595633e-006 
0.0004967781140863734 
-0.0003219509630700481 
0.0002343583234220277 
-0.0002723406904157907 
-0.0001239505556971482 
9.116959831012272e-008 
-0.0002321197677451934 
0.0003345579363588435 
0.0001453712792798359 
-0.0004048755614706096 
0.0004377846523455094 
-0.0002177004630619769 
-0.0001589403371060783 
0.0003318065020951052 
-0.0003335912712142824 
0.0001455057490846825 
6.820722214530342e-005 
-0.000511043234312965 
0.0007440736793439821 
-0.0003468596204281777 
-0.0002222548983180673 
0.0005035856119147732 
-0.0003262094557160851 
0.0003363887780513914 
-2.036753733205521e-005 
-0.0005975497880538612 
0.0006207201939482204 
-0.000355154214886735 
-0.0001592436951213106 
0.0006226607384519088 
-0.0004071171745831936 
0.0005024578700261206 
2.349682774306412e-005 
-0.0005092339135530688 
0.0003050321565062399 
-0.0004388941198621728 
0.0001564676940787029 
0.0007092944312843774 
-8.955715243554967e-005 
0.0004388738714862687 
-0.000392867309101015 
-0.0006785007474415559 
0.0001586107372610231 
-0.0003631628355246671 
0.0002062548745154504 
0.000686039988775778 
-4.733211180359351e-005 
0.0002507509690541917 
-0.0003184842155291133 
-0.0004927378379133426 
-4.1507339580191e-005 
-0.0003038256379116005 
